{
  "version": "1.0",
  "truncation": null,
  "padding": null,
  "added_tokens": [
    {
      "id": 0,
      "content": "[PAD]",
      "single_word": false,
      "lstrip": false,
      "rstrip": false,
      "normalized": false,
      "special": true
    },
    {
      "id": 1,
      "content": "[CLS]",
      "single_word": false,
      "lstrip": false,
      "rstrip": false,
      "normalized": false,
      "special": true
    },
    {
      "id": 2,
      "content": "[SEP]",
      "single_word": false,
      "lstrip": false,
      "rstrip": false,
      "normalized": false,
      "special": true
    },
    {
      "id": 3,
      "content": "[UNK]",
      "single_word": false,
      "lstrip": false,
      "rstrip": false,
      "normalized": false,
      "special": true
    },
    {
      "id": 4,
      "content": "[MASK]",
      "single_word": false,
      "lstrip": false,
      "rstrip": false,
      "normalized": false,
      "special": true
    }
  ],
  "normalizer": null,
  "pre_tokenizer": {
    "type": "ByteLevel",
    "add_prefix_space": true,
    "trim_offsets": true,
    "use_regex": true
  },
  "post_processor": {
    "type": "TemplateProcessing",
    "single": [
      {
        "SpecialToken": {
          "id": "[CLS]",
          "type_id": 0
        }
      },
      {
        "Sequence": {
          "id": "A",
          "type_id": 0
        }
      },
      {
        "SpecialToken": {
          "id": "[SEP]",
          "type_id": 0
        }
      }
    ],
    "pair": [
      {
        "SpecialToken": {
          "id": "[CLS]",
          "type_id": 0
        }
      },
      {
        "Sequence": {
          "id": "A",
          "type_id": 0
        }
      },
      {
        "SpecialToken": {
          "id": "[SEP]",
          "type_id": 0
        }
      },
      {
        "Sequence": {
          "id": "B",
          "type_id": 1
        }
      },
      {
        "SpecialToken": {
          "id": "[SEP]",
          "type_id": 1
        }
      }
    ],
    "special_tokens": {
      "[CLS]": {
        "id": "[CLS]",
        "ids": [
          1
        ],
        "tokens": [
          "[CLS]"
        ]
      },
      "[SEP]": {
        "id": "[SEP]",
        "ids": [
          2
        ],
        "tokens": [
          "[SEP]"
        ]
      }
    }
  },
  "decoder": {
    "type": "ByteLevel",
    "add_prefix_space": true,
    "trim_offsets": true,
    "use_regex": true
  },
  "model": {
    "type": "BPE",
    "dropout": null,
    "unk_token": null,
    "continuing_subword_prefix": null,
    "end_of_word_suffix": null,
    "fuse_unk": false,
    "byte_fallback": false,
    "ignore_merges": false,
    "vocab": {
      "[PAD]": 0,
      "[CLS]": 1,
      "[SEP]": 2,
      "[UNK]": 3,
      "[MASK]": 4,
      "!": 5,
      "(": 6,
      ")": 7,
      "+": 8,
      ",": 9,
      "-": 10,
      ".": 11,
      "/": 12,
      "0": 13,
      "1": 14,
      "2": 15,
      "3": 16,
      "4": 17,
      "5": 18,
      "6": 19,
      "7": 20,
      "8": 21,
      "9": 22,
      "=": 23,
      "A": 24,
      "B": 25,
      "C": 26,
      "D": 27,
      "E": 28,
      "F": 29,
      "H": 30,
      "L": 31,
      "M": 32,
      "N": 33,
      "P": 34,
      "R": 35,
      "S": 36,
      "T": 37,
      "V": 38,
      "X": 39,
      "Y": 40,
      "[": 41,
      "\\": 42,
      "]": 43,
      "^": 44,
      "_": 45,
      "a": 46,
      "b": 47,
      "c": 48,
      "d": 49,
      "e": 50,
      "f": 51,
      "g": 52,
      "h": 53,
      "i": 54,
      "j": 55,
      "k": 56,
      "l": 57,
      "m": 58,
      "n": 59,
      "o": 60,
      "p": 61,
      "q": 62,
      "r": 63,
      "s": 64,
      "t": 65,
      "u": 66,
      "v": 67,
      "w": 68,
      "x": 69,
      "y": 70,
      "z": 71,
      "{": 72,
      "|": 73,
      "}": 74,
      "Ä": 75,
      "Ċ": 76,
      "Ġ": 77,
      "ī": 78,
      "ł": 79,
      "ĠÄ": 80,
      "ĠÄł": 81,
      "Ġ}": 82,
      "Ġ)": 83,
      "Ġ1": 84,
      "^{": 85,
      "Ġ2": 86,
      "Ġa": 87,
      "Ġi": 88,
      "Ġd": 89,
      "-\\": 90,
      "Ġ=": 91,
      "ĠÄłd": 92,
      "Ġ7": 93,
      "Ġ)}": 94,
      "Ġ3": 95,
      "Ġ5": 96,
      "Ġl": 97,
      "+\\": 98,
      "_{": 99,
      "Ġ|": 100,
      "Ġ})": 101,
      "Ġ}}": 102,
      "xy": 103,
      "Ġ0": 104,
      "Ġ^{": 105,
      "(\\": 106,
      "{\\": 107,
      "Ġ4": 108,
      "Ġ]": 109,
      "Ġb": 110,
      "Ġs": 111,
      "Ġ)=": 112,
      "99": 113,
      "Ġc": 114,
      "Ġm": 115,
      "Ġ{": 116,
      "Ġ_{": 117,
      "ĠÄła": 118,
      "Ġ12": 119,
      "56": 120,
      "ta": 121,
      "Ġ,": 122,
      "Ġ6": 123,
      "Ġ9": 124,
      "ĠN": 125,
      "Ġg": 126,
      "Ġn": 127,
      "Ġp": 128,
      "Ġx": 129,
      "Ġy": 130,
      "ĠÄłc": 131,
      "Ġ}^{": 132,
      "Ġ10": 133,
      "(-": 134,
      "+(": 135,
      "-(": 136,
      "10": 137,
      "35": 138,
      "46": 139,
      "=\\": 140,
      "|\\": 141,
      "Ġ!": 142,
      "Ġ[": 143,
      "Ġ\\": 144,
      "Ġf": 145,
      "Ġk": 146,
      "Ġr": 147,
      "Ġt": 148,
      "ĠÄłb": 149,
      "ĠÄłi": 150,
      "ĠÄłm": 151,
      "ĠÄły": 152,
      "Ġ},": 153,
      "Ġ)^{": 154,
      "Ġ72": 155,
      "/(": 156,
      "13": 157,
      "14": 158,
      "16": 159,
      "27": 160,
      "69": 161,
      "73": 162,
      "93": 163,
      "=-": 164,
      "\\{": 165,
      "^\\": 166,
      "dx": 167,
      "eq": 168,
      "ig": 169,
      "im": 170,
      "Ġ(": 171,
      "Ġ8": 172,
      "ĠÄłf": 173,
      "ĠÄłxy": 174,
      "Ġ}{": 175,
      "Ġ11": 176,
      "Ġ16": 177,
      "Ġ17": 178,
      "Ġ18": 179,
      "Ġab": 180,
      "Ġin": 181,
      "Ġdy": 182,
      "Ġ})^{": 183,
      "Ġ\\}": 184,
      "+|": 185,
      "/\\": 186,
      "00": 187,
      "18": 188,
      "40": 189,
      "45": 190,
      "593": 191,
      "68": 192,
      "71": 193,
      "92": 194,
      "=(": 195,
      "AA": 196,
      "CC": 197,
      "Li": 198,
      "am": 199,
      "ax": 200,
      "ef": 201,
      "eta": 202,
      "ma": 203,
      "or": 204,
      "ot": 205,
      "qx": 206,
      "{{\\": 207,
      "||": 208,
      "}}": 209,
      "Ġ.": 210,
      "ĠB": 211,
      "ĠH": 212,
      "Ġj": 213,
      "Ġz": 214,
      "Ġxy": 215,
      "ĠÄłR": 216,
      "ĠÄłk": 217,
      "ĠÄłn": 218,
      "ĠÄłu": 219,
      "ĠÄłx": 220,
      "Ġ}=": 221,
      "Ġ}_{": 222,
      "Ġ)]": 223,
      "Ġ)|": 224,
      "Ġ13": 225,
      "Ġ19": 226,
      "Ġ22": 227,
      "Ġ24": 228,
      "Ġij": 229,
      "Ġdx": 230,
      "Ġ78": 231,
      "Ġ39": 232,
      "Ġ56": 233,
      "Ġlo": 234,
      "Ġ|^{": 235,
      "Ġ01": 236,
      "Ġ^{-": 237,
      "Ġ40": 238,
      "Ġ48": 239,
      "Ġba": 240,
      "Ġsu": 241,
      "560": 242,
      "ĠNx": 243,
      "ĠÄłca": 244,
      "103": 245,
      "Ġfr": 246,
      "Ġrig": 247,
      "ime": 248,
      "Ġabc": 249,
      "Ġrigh": 250,
      "((": 251,
      "(+": 252,
      ")\\": 253,
      ")|": 254,
      ")=-": 255,
      "+}": 256,
      "-{{\\": 257,
      "/{": 258,
      "03": 259,
      "04": 260,
      "05": 261,
      "15": 262,
      "17": 263,
      "127": 264,
      "192": 265,
      "20": 266,
      "24": 267,
      "28": 268,
      "269": 269,
      "292": 270,
      "32": 271,
      "34": 272,
      "38": 273,
      "346": 274,
      "48": 275,
      "49": 276,
      "57": 277,
      "58": 278,
      "599": 279,
      "64": 280,
      "669": 281,
      "75": 282,
      "78": 283,
      "80": 284,
      "82": 285,
      "813": 286,
      "893": 287,
      "840": 288,
      "90": 289,
      "=-(": 290,
      "Bd": 291,
      "CH": 292,
      "De": 293,
      "Ln": 294,
      "Lt": 295,
      "MR": 296,
      "XCC": 297,
      "[(": 298,
      "ac": 299,
      "al": 300,
      "at": 301,
      "bb": 302,
      "bd": 303,
      "bo": 304,
      "by": 305,
      "dv": 306,
      "dy": 307,
      "dz": 308,
      "dot": 309,
      "ep": 310,
      "ft": 311,
      "ha": 312,
      "hi": 313,
      "hr": 314,
      "heta": 315,
      "in": 316,
      "iv": 317,
      "lp": 318,
      "lta": 319,
      "mm": 320,
      "nt": 321,
      "od": 322,
      "on": 323,
      "op": 324,
      "os": 325,
      "ow": 326,
      "qr": 327,
      "rr": 328,
      "rime": 329,
      "tr": 330,
      "udv": 331,
      "yc": 332,
      "{(": 333,
      "{-": 334,
      "{{": 335,
      "}^": 336,
      "}{": 337,
      "}{{\\": 338,
      "Ġ+": 339,
      "Ġ-": 340,
      "Ġ/": 341,
      "Ġ^": 342,
      "Ġ_": 343,
      "Ġe": 344,
      "Ġh": 345,
      "Ġo": 346,
      "Ġq": 347,
      "Ġu": 348,
      "Ġv": 349,
      "Ġw": 350,
      "Ġ-\\": 351,
      "Ġ+\\": 352,
      "Ġ(\\": 353,
      "Ġ{\\": 354,
      "Ġ99": 355,
      "Ġta": 356,
      "Ġ(-": 357,
      "Ġ+(": 358,
      "Ġ^\\": 359,
      "Ġ+|": 360,
      "Ġ/\\": 361,
      "ĠLi": 362,
      "Ġef": 363,
      "Ġqx": 364,
      "ĠDe": 365,
      "ĠLn": 366,
      "ĠMR": 367,
      "ĠÄī": 368,
      "ĠÄłH": 369,
      "ĠÄłS": 370,
      "ĠÄłT": 371,
      "ĠÄłe": 372,
      "ĠÄłg": 373,
      "ĠÄłj": 374,
      "ĠÄłl": 375,
      "ĠÄło": 376,
      "ĠÄłp": 377,
      "ĠÄłq": 378,
      "ĠÄłr": 379,
      "ĠÄłv": 380,
      "ĠÄłw": 381,
      "ĠÄłz": 382,
      "ĠÄłAA": 383,
      "ĠÄłCC": 384,
      "ĠÄłLi": 385,
      "ĠÄłor": 386,
      "ĠÄłqx": 387,
      "ĠÄłBd": 388,
      "ĠÄłLt": 389,
      "ĠÄłXCC": 390,
      "ĠÄłtr": 391,
      "Ġ}(": 392,
      "Ġ}+": 393,
      "Ġ}-": 394,
      "Ġ}[": 395,
      "Ġ}\\": 396,
      "Ġ}^": 397,
      "Ġ}_": 398,
      "Ġ}|": 399,
      "Ġ}-\\": 400,
      "Ġ}+\\": 401,
      "Ġ}(\\": 402,
      "Ġ}{\\": 403,
      "Ġ}=\\": 404,
      "Ġ}|\\": 405,
      "Ġ}/(": 406,
      "Ġ}=-": 407,
      "Ġ}^\\": 408,
      "Ġ}/{": 409,
      "Ġ)(": 410,
      "Ġ)+": 411,
      "Ġ),": 412,
      "Ġ)-": 413,
      "Ġ)/": 414,
      "Ġ)\\": 415,
      "Ġ)^": 416,
      "Ġ){": 417,
      "Ġ)+\\": 418,
      "Ġ)+(": 419,
      "Ġ)-(": 420,
      "Ġ)/(": 421,
      "Ġ)^\\": 422,
      "Ġ)/\\": 423,
      "Ġ14": 424,
      "Ġ15": 425,
      "Ġ199": 426,
      "Ġ156": 427,
      "Ġ135": 428,
      "Ġ146": 429,
      "Ġ140": 430,
      "Ġ1593": 431,
      "Ġ21": 432,
      "Ġ23": 433,
      "Ġ27": 434,
      "Ġ28": 435,
      "Ġ29": 436,
      "Ġ235": 437,
      "Ġ246": 438,
      "Ġ269": 439,
      "Ġ200": 440,
      "Ġ2560": 441,
      "Ġ2599": 442,
      "ĠaE": 443,
      "ĠaF": 444,
      "ĠaY": 445,
      "Ġaa": 446,
      "Ġac": 447,
      "Ġap": 448,
      "Ġaw": 449,
      "Ġax": 450,
      "Ġaz": 451,
      "Ġadx": 452,
      "Ġalp": 453,
      "ĠiY": 454,
      "Ġif": 455,
      "Ġik": 456,
      "Ġit": 457,
      "Ġiu": 458,
      "Ġix": 459,
      "Ġiz": 460,
      "Ġidx": 461,
      "Ġiby": 462,
      "Ġda": 463,
      "Ġdb": 464,
      "Ġdf": 465,
      "Ġdt": 466,
      "Ġdz": 467,
      "Ġdxy": 468,
      "Ġdiv": 469,
      "Ġdudv": 470,
      "Ġ=(": 471,
      "Ġ=-": 472,
      "Ġ=\\": 473,
      "Ġ=|": 474,
      "Ġ=-\\": 475,
      "Ġ=+\\": 476,
      "Ġ=(\\": 477,
      "Ġ={\\": 478,
      "Ġ=(-": 479,
      "Ġ=-(": 480,
      "Ġ=|\\": 481,
      "Ġ=\\{": 482,
      "ĠÄłdB": 483,
      "ĠÄłdV": 484,
      "ĠÄłdf": 485,
      "ĠÄłdk": 486,
      "ĠÄłdl": 487,
      "ĠÄłds": 488,
      "ĠÄłdt": 489,
      "ĠÄłdw": 490,
      "ĠÄłdx": 491,
      "ĠÄłdy": 492,
      "ĠÄłdz": 493,
      "ĠÄłdxy": 494,
      "Ġ79": 495,
      "Ġ799": 496,
      "Ġ735": 497,
      "Ġ703": 498,
      "Ġ7346": 499,
      "Ġ)}(": 500,
      "Ġ)}+": 501,
      "Ġ)}-": 502,
      "Ġ)}=": 503,
      "Ġ)}\\": 504,
      "Ġ)}_": 505,
      "Ġ)}{": 506,
      "Ġ)}|": 507,
      "Ġ)}}": 508,
      "Ġ)}-\\": 509,
      "Ġ)}_{": 510,
      "Ġ30": 511,
      "Ġ31": 512,
      "Ġ32": 513,
      "Ġ33": 514,
      "Ġ34": 515,
      "Ġ35": 516,
      "Ġ36": 517,
      "Ġ3840": 518,
      "Ġ52": 519,
      "Ġ53": 520,
      "Ġ55": 521,
      "Ġ59": 522,
      "Ġ5593": 523,
      "Ġ571": 524,
      "Ġ575": 525,
      "Ġlt": 526,
      "Ġleq": 527,
      "Ġlim": 528,
      "Ġlam": 529,
      "Ġlef": 530,
      "Ġldot": 531,
      "Ġlep": 532,
      "Ġ|\\": 533,
      "Ġ|^": 534,
      "Ġ||": 535,
      "Ġ|}": 536,
      "Ġ|(-": 537,
      "Ġ|}}": 538,
      "Ġ})+": 539,
      "Ġ})/": 540,
      "Ġ})\\": 541,
      "Ġ})+\\": 542,
      "Ġ})=(": 543,
      "Ġ}}(": 544,
      "Ġ}}+": 545,
      "Ġ}}[": 546,
      "Ġ}}\\": 547,
      "Ġ}}{": 548,
      "Ġ}}+\\": 549,
      "Ġ}}(\\": 550,
      "Ġ}}}{{\\": 551,
      "Ġ010": 552,
      "Ġ073": 553,
      "Ġ004": 554,
      "Ġ049": 555,
      "Ġ0893": 556,
      "Ġ^{(": 557,
      "Ġ^{+": 558,
      "Ġ^{\\": 559,
      "Ġ^{-\\": 560,
      "Ġ^{(\\": 561,
      "Ġ45": 562,
      "Ġ418": 563,
      "Ġ])": 564,
      "Ġ]=": 565,
      "Ġ][": 566,
      "Ġ]}": 567,
      "Ġ]=\\": 568,
      "Ġ]=-": 569,
      "Ġbi": 570,
      "Ġbj": 571,
      "Ġbeta": 572,
      "Ġbbb": 573,
      "Ġsig": 574,
      "Ġsin": 575,
      "Ġsmm": 576,
      "Ġsqr": 577,
      "Ġ)=(": 578,
      "Ġ)=-": 579,
      "Ġ)=[": 580,
      "Ġ)=\\": 581,
      "Ġ)=-\\": 582,
      "Ġ)={\\": 583,
      "Ġca": 584,
      "Ġcb": 585,
      "Ġcr": 586,
      "Ġcx": 587,
      "Ġcos": 588,
      "Ġmn": 589,
      "Ġmv": 590,
      "Ġmax": 591,
      "Ġmat": 592,
      "Ġmbo": 593,
      "Ġ{(": 594,
      "Ġ{-": 595,
      "Ġ{|": 596,
      "Ġ{|\\": 597,
      "Ġ{+}": 598,
      "Ġ_{(": 599,
      "Ġ_{+": 600,
      "Ġ_{[": 601,
      "Ġ_{\\": 602,
      "Ġ_{-\\": 603,
      "ĠÄłab": 604,
      "ĠÄłac": 605,
      "ĠÄład": 606,
      "ĠÄłap": 607,
      "ĠÄłay": 608,
      "Ġ125": 609,
      "Ġ126": 610,
      "Ġ128": 611,
      "Ġ1246": 612,
      "Ġ1234": 613,
      "tarr": 614,
      "Ġ,-": 615,
      "Ġ,\\": 616,
      "Ġ,-\\": 617,
      "Ġ,(\\": 618,
      "Ġ63": 619,
      "Ġ65": 620,
      "Ġ66": 621,
      "Ġ67": 622,
      "Ġ95": 623,
      "Ġ98": 624,
      "Ġ973": 625,
      "Ġ945": 626,
      "ĠNF": 627,
      "ĠNP": 628,
      "ĠNy": 629,
      "Ġgt": 630,
      "Ġgx": 631,
      "Ġgeq": 632,
      "Ġgam": 633,
      "ĠnC": 634,
      "Ġne": 635,
      "Ġnz": 636,
      "Ġneq": 637,
      "Ġpi": 638,
      "Ġpm": 639,
      "Ġphi": 640,
      "Ġprime": 641,
      "ĠxA": 642,
      "Ġxb": 643,
      "Ġxx": 644,
      "Ġxxy": 645,
      "Ġya": 646,
      "Ġyb": 647,
      "Ġyx": 648,
      "Ġyy": 649,
      "ĠÄłcon": 650,
      "ĠÄłcyc": 651,
      "Ġ}^{-": 652,
      "Ġ}^{\\": 653,
      "Ġ}^{+\\": 654,
      "Ġ}^{+(": 655,
      "Ġ100": 656,
      "Ġ104": 657,
      "Ġ1056": 658,
      "Ġ1000": 659,
      "Ġ!)": 660,
      "Ġ!}": 661,
      "Ġ!/(": 662,
      "Ġ[-": 663,
      "Ġ[\\": 664,
      "Ġ[{": 665,
      "Ġfor": 666,
      "Ġkn": 667,
      "Ġkr": 668,
      "Ġkx": 669,
      "Ġrw": 670,
      "Ġtot": 671,
      "Ġtime": 672,
      "Ġtheta": 673,
      "ĠÄłba": 674,
      "ĠÄłbc": 675,
      "ĠÄłbx": 676,
      "ĠÄłiu": 677,
      "ĠÄłix": 678,
      "ĠÄłint": 679,
      "ĠÄłmn": 680,
      "ĠÄłmax": 681,
      "ĠÄłmod": 682,
      "ĠÄłyb": 683,
      "ĠÄłyk": 684,
      "ĠÄłydx": 685,
      "Ġ},-": 686,
      "Ġ},\\": 687,
      "Ġ},-\\": 688,
      "Ġ)^{-": 689,
      "Ġ)^{\\": 690,
      "Ġ)^{|": 691,
      "Ġ725": 692,
      "Ġ7268": 693,
      "Ġ7290": 694,
      "137": 695,
      "144": 696,
      "167": 697,
      "1605": 698,
      "Ġ([": 699,
      "Ġ(-\\": 700,
      "Ġ80": 701,
      "Ġ8192": 702,
      "ĠÄłfg": 703,
      "ĠÄłfx": 704,
      "ĠÄłxyx": 705,
      "ĠÄłxyz": 706,
      "Ġ}{(": 707,
      "Ġ}{{(": 708,
      "Ġ112": 709,
      "Ġ1173": 710,
      "Ġ167": 711,
      "Ġ1614": 712,
      "Ġ176": 713,
      "Ġ1782": 714,
      "Ġ189": 715,
      "Ġ1858": 716,
      "Ġint": 717,
      "Ġinft": 718,
      "Ġdyx": 719,
      "Ġdyy": 720,
      "Ġ})^{-": 721,
      "Ġ})^{\\": 722,
      "Ġ\\}=": 723,
      "Ġ\\}\\{": 724,
      "||^": 725,
      "Ġ.(": 726,
      "Ġ.\\": 727,
      "ĠBp": 728,
      "ĠBCH": 729,
      "ĠHt": 730,
      "ĠHz": 731,
      "Ġjq": 732,
      "Ġzdz": 733,
      "Ġxyz": 734,
      "ĠÄłRe": 735,
      "ĠÄłRn": 736,
      "ĠÄłkL": 737,
      "ĠÄłnm": 738,
      "ĠÄłuh": 739,
      "ĠÄłxb": 740,
      "Ġ}=-\\": 741,
      "Ġ}_{+\\": 742,
      "Ġ)]-": 743,
      "Ġ)]^": 744,
      "Ġ)|}": 745,
      "Ġ)|=\\": 746,
      "Ġ130": 747,
      "Ġ1968": 748,
      "Ġ2227": 749,
      "Ġ2499": 750,
      "Ġijk": 751,
      "Ġdxx": 752,
      "Ġ783": 753,
      "Ġ3957": 754,
      "Ġ5678": 755,
      "Ġlog": 756,
      "Ġloop": 757,
      "Ġ|^{-": 758,
      "Ġ|^{\\": 759,
      "Ġ011": 760,
      "Ġ^{-|": 761,
      "Ġ4017": 762,
      "Ġ481": 763,
      "Ġbab": 764,
      "Ġsum": 765,
      "ĠNxdy": 766,
      "ĠÄłcan": 767,
      "1037": 768,
      "Ġfrac": 769,
      "Ġabcd": 770,
      "Ġright": 771,
      "Ġrightarr": 772,
      "((-\\": 773,
      "all": 774,
      "bda": 775,
      "hrm": 776,
      "Ġ999": 777,
      "Ġtan": 778,
      "Ġeff": 779,
      "ĠDelta": 780,
      "ĠÄłAAA": 781,
      "ĠÄłBdA": 782,
      "Ġ1992": 783,
      "Ġ1563": 784,
      "Ġ1407": 785,
      "Ġalpha": 786,
      "Ġlambda": 787,
      "Ġleft": 788,
      "Ġldots": 789,
      "Ġlept": 790,
      "Ġ07371": 791,
      "Ġsigma": 792,
      "Ġsqrt": 793,
      "Ġmathrm": 794,
      "Ġmbox": 795,
      "Ġgamma": 796,
      "Ġ10001": 797,
      "Ġforall": 798,
      "Ġtimes": 799,
      "Ġinfty": 800,
      "Ġrightarrow": 801
    },
    "merges": [
      [
        "Ġ",
        "Ä"
      ],
      [
        "ĠÄ",
        "ł"
      ],
      [
        "Ġ",
        "}"
      ],
      [
        "Ġ",
        ")"
      ],
      [
        "Ġ",
        "1"
      ],
      [
        "^",
        "{"
      ],
      [
        "Ġ",
        "2"
      ],
      [
        "Ġ",
        "a"
      ],
      [
        "Ġ",
        "i"
      ],
      [
        "Ġ",
        "d"
      ],
      [
        "-",
        "\\"
      ],
      [
        "Ġ",
        "="
      ],
      [
        "ĠÄł",
        "d"
      ],
      [
        "Ġ",
        "7"
      ],
      [
        "Ġ)",
        "}"
      ],
      [
        "Ġ",
        "3"
      ],
      [
        "Ġ",
        "5"
      ],
      [
        "Ġ",
        "l"
      ],
      [
        "+",
        "\\"
      ],
      [
        "_",
        "{"
      ],
      [
        "Ġ",
        "|"
      ],
      [
        "Ġ}",
        ")"
      ],
      [
        "Ġ}",
        "}"
      ],
      [
        "x",
        "y"
      ],
      [
        "Ġ",
        "0"
      ],
      [
        "Ġ",
        "^{"
      ],
      [
        "(",
        "\\"
      ],
      [
        "{",
        "\\"
      ],
      [
        "Ġ",
        "4"
      ],
      [
        "Ġ",
        "]"
      ],
      [
        "Ġ",
        "b"
      ],
      [
        "Ġ",
        "s"
      ],
      [
        "Ġ)",
        "="
      ],
      [
        "9",
        "9"
      ],
      [
        "Ġ",
        "c"
      ],
      [
        "Ġ",
        "m"
      ],
      [
        "Ġ",
        "{"
      ],
      [
        "Ġ",
        "_{"
      ],
      [
        "ĠÄł",
        "a"
      ],
      [
        "Ġ1",
        "2"
      ],
      [
        "5",
        "6"
      ],
      [
        "t",
        "a"
      ],
      [
        "Ġ",
        ","
      ],
      [
        "Ġ",
        "6"
      ],
      [
        "Ġ",
        "9"
      ],
      [
        "Ġ",
        "N"
      ],
      [
        "Ġ",
        "g"
      ],
      [
        "Ġ",
        "n"
      ],
      [
        "Ġ",
        "p"
      ],
      [
        "Ġ",
        "x"
      ],
      [
        "Ġ",
        "y"
      ],
      [
        "ĠÄł",
        "c"
      ],
      [
        "Ġ}",
        "^{"
      ],
      [
        "Ġ1",
        "0"
      ],
      [
        "(",
        "-"
      ],
      [
        "+",
        "("
      ],
      [
        "-",
        "("
      ],
      [
        "1",
        "0"
      ],
      [
        "3",
        "5"
      ],
      [
        "4",
        "6"
      ],
      [
        "=",
        "\\"
      ],
      [
        "|",
        "\\"
      ],
      [
        "Ġ",
        "!"
      ],
      [
        "Ġ",
        "["
      ],
      [
        "Ġ",
        "\\"
      ],
      [
        "Ġ",
        "f"
      ],
      [
        "Ġ",
        "k"
      ],
      [
        "Ġ",
        "r"
      ],
      [
        "Ġ",
        "t"
      ],
      [
        "ĠÄł",
        "b"
      ],
      [
        "ĠÄł",
        "i"
      ],
      [
        "ĠÄł",
        "m"
      ],
      [
        "ĠÄł",
        "y"
      ],
      [
        "Ġ}",
        ","
      ],
      [
        "Ġ)",
        "^{"
      ],
      [
        "Ġ7",
        "2"
      ],
      [
        "/",
        "("
      ],
      [
        "1",
        "3"
      ],
      [
        "1",
        "4"
      ],
      [
        "1",
        "6"
      ],
      [
        "2",
        "7"
      ],
      [
        "6",
        "9"
      ],
      [
        "7",
        "3"
      ],
      [
        "9",
        "3"
      ],
      [
        "=",
        "-"
      ],
      [
        "\\",
        "{"
      ],
      [
        "^",
        "\\"
      ],
      [
        "d",
        "x"
      ],
      [
        "e",
        "q"
      ],
      [
        "i",
        "g"
      ],
      [
        "i",
        "m"
      ],
      [
        "Ġ",
        "("
      ],
      [
        "Ġ",
        "8"
      ],
      [
        "ĠÄł",
        "f"
      ],
      [
        "ĠÄł",
        "xy"
      ],
      [
        "Ġ}",
        "{"
      ],
      [
        "Ġ1",
        "1"
      ],
      [
        "Ġ1",
        "6"
      ],
      [
        "Ġ1",
        "7"
      ],
      [
        "Ġ1",
        "8"
      ],
      [
        "Ġa",
        "b"
      ],
      [
        "Ġi",
        "n"
      ],
      [
        "Ġd",
        "y"
      ],
      [
        "Ġ})",
        "^{"
      ],
      [
        "Ġ\\",
        "}"
      ],
      [
        "+",
        "|"
      ],
      [
        "/",
        "\\"
      ],
      [
        "0",
        "0"
      ],
      [
        "1",
        "8"
      ],
      [
        "4",
        "0"
      ],
      [
        "4",
        "5"
      ],
      [
        "5",
        "93"
      ],
      [
        "6",
        "8"
      ],
      [
        "7",
        "1"
      ],
      [
        "9",
        "2"
      ],
      [
        "=",
        "("
      ],
      [
        "A",
        "A"
      ],
      [
        "C",
        "C"
      ],
      [
        "L",
        "i"
      ],
      [
        "a",
        "m"
      ],
      [
        "a",
        "x"
      ],
      [
        "e",
        "f"
      ],
      [
        "e",
        "ta"
      ],
      [
        "m",
        "a"
      ],
      [
        "o",
        "r"
      ],
      [
        "o",
        "t"
      ],
      [
        "q",
        "x"
      ],
      [
        "{",
        "{\\"
      ],
      [
        "|",
        "|"
      ],
      [
        "}",
        "}"
      ],
      [
        "Ġ",
        "."
      ],
      [
        "Ġ",
        "B"
      ],
      [
        "Ġ",
        "H"
      ],
      [
        "Ġ",
        "j"
      ],
      [
        "Ġ",
        "z"
      ],
      [
        "Ġ",
        "xy"
      ],
      [
        "ĠÄł",
        "R"
      ],
      [
        "ĠÄł",
        "k"
      ],
      [
        "ĠÄł",
        "n"
      ],
      [
        "ĠÄł",
        "u"
      ],
      [
        "ĠÄł",
        "x"
      ],
      [
        "Ġ}",
        "="
      ],
      [
        "Ġ}",
        "_{"
      ],
      [
        "Ġ)",
        "]"
      ],
      [
        "Ġ)",
        "|"
      ],
      [
        "Ġ1",
        "3"
      ],
      [
        "Ġ1",
        "9"
      ],
      [
        "Ġ2",
        "2"
      ],
      [
        "Ġ2",
        "4"
      ],
      [
        "Ġi",
        "j"
      ],
      [
        "Ġd",
        "x"
      ],
      [
        "Ġ7",
        "8"
      ],
      [
        "Ġ3",
        "9"
      ],
      [
        "Ġ5",
        "6"
      ],
      [
        "Ġl",
        "o"
      ],
      [
        "Ġ|",
        "^{"
      ],
      [
        "Ġ0",
        "1"
      ],
      [
        "Ġ^{",
        "-"
      ],
      [
        "Ġ4",
        "0"
      ],
      [
        "Ġ4",
        "8"
      ],
      [
        "Ġb",
        "a"
      ],
      [
        "Ġs",
        "u"
      ],
      [
        "56",
        "0"
      ],
      [
        "ĠN",
        "x"
      ],
      [
        "ĠÄłc",
        "a"
      ],
      [
        "10",
        "3"
      ],
      [
        "Ġf",
        "r"
      ],
      [
        "Ġr",
        "ig"
      ],
      [
        "im",
        "e"
      ],
      [
        "Ġab",
        "c"
      ],
      [
        "Ġrig",
        "h"
      ],
      [
        "(",
        "("
      ],
      [
        "(",
        "+"
      ],
      [
        ")",
        "\\"
      ],
      [
        ")",
        "|"
      ],
      [
        ")",
        "=-"
      ],
      [
        "+",
        "}"
      ],
      [
        "-",
        "{{\\"
      ],
      [
        "/",
        "{"
      ],
      [
        "0",
        "3"
      ],
      [
        "0",
        "4"
      ],
      [
        "0",
        "5"
      ],
      [
        "1",
        "5"
      ],
      [
        "1",
        "7"
      ],
      [
        "1",
        "27"
      ],
      [
        "1",
        "92"
      ],
      [
        "2",
        "0"
      ],
      [
        "2",
        "4"
      ],
      [
        "2",
        "8"
      ],
      [
        "2",
        "69"
      ],
      [
        "2",
        "92"
      ],
      [
        "3",
        "2"
      ],
      [
        "3",
        "4"
      ],
      [
        "3",
        "8"
      ],
      [
        "3",
        "46"
      ],
      [
        "4",
        "8"
      ],
      [
        "4",
        "9"
      ],
      [
        "5",
        "7"
      ],
      [
        "5",
        "8"
      ],
      [
        "5",
        "99"
      ],
      [
        "6",
        "4"
      ],
      [
        "6",
        "69"
      ],
      [
        "7",
        "5"
      ],
      [
        "7",
        "8"
      ],
      [
        "8",
        "0"
      ],
      [
        "8",
        "2"
      ],
      [
        "8",
        "13"
      ],
      [
        "8",
        "93"
      ],
      [
        "8",
        "40"
      ],
      [
        "9",
        "0"
      ],
      [
        "=",
        "-("
      ],
      [
        "B",
        "d"
      ],
      [
        "C",
        "H"
      ],
      [
        "D",
        "e"
      ],
      [
        "L",
        "n"
      ],
      [
        "L",
        "t"
      ],
      [
        "M",
        "R"
      ],
      [
        "X",
        "CC"
      ],
      [
        "[",
        "("
      ],
      [
        "a",
        "c"
      ],
      [
        "a",
        "l"
      ],
      [
        "a",
        "t"
      ],
      [
        "b",
        "b"
      ],
      [
        "b",
        "d"
      ],
      [
        "b",
        "o"
      ],
      [
        "b",
        "y"
      ],
      [
        "d",
        "v"
      ],
      [
        "d",
        "y"
      ],
      [
        "d",
        "z"
      ],
      [
        "d",
        "ot"
      ],
      [
        "e",
        "p"
      ],
      [
        "f",
        "t"
      ],
      [
        "h",
        "a"
      ],
      [
        "h",
        "i"
      ],
      [
        "h",
        "r"
      ],
      [
        "h",
        "eta"
      ],
      [
        "i",
        "n"
      ],
      [
        "i",
        "v"
      ],
      [
        "l",
        "p"
      ],
      [
        "l",
        "ta"
      ],
      [
        "m",
        "m"
      ],
      [
        "n",
        "t"
      ],
      [
        "o",
        "d"
      ],
      [
        "o",
        "n"
      ],
      [
        "o",
        "p"
      ],
      [
        "o",
        "s"
      ],
      [
        "o",
        "w"
      ],
      [
        "q",
        "r"
      ],
      [
        "r",
        "r"
      ],
      [
        "r",
        "ime"
      ],
      [
        "t",
        "r"
      ],
      [
        "u",
        "dv"
      ],
      [
        "y",
        "c"
      ],
      [
        "{",
        "("
      ],
      [
        "{",
        "-"
      ],
      [
        "{",
        "{"
      ],
      [
        "}",
        "^"
      ],
      [
        "}",
        "{"
      ],
      [
        "}",
        "{{\\"
      ],
      [
        "Ġ",
        "+"
      ],
      [
        "Ġ",
        "-"
      ],
      [
        "Ġ",
        "/"
      ],
      [
        "Ġ",
        "^"
      ],
      [
        "Ġ",
        "_"
      ],
      [
        "Ġ",
        "e"
      ],
      [
        "Ġ",
        "h"
      ],
      [
        "Ġ",
        "o"
      ],
      [
        "Ġ",
        "q"
      ],
      [
        "Ġ",
        "u"
      ],
      [
        "Ġ",
        "v"
      ],
      [
        "Ġ",
        "w"
      ],
      [
        "Ġ",
        "-\\"
      ],
      [
        "Ġ",
        "+\\"
      ],
      [
        "Ġ",
        "(\\"
      ],
      [
        "Ġ",
        "{\\"
      ],
      [
        "Ġ",
        "99"
      ],
      [
        "Ġ",
        "ta"
      ],
      [
        "Ġ",
        "(-"
      ],
      [
        "Ġ",
        "+("
      ],
      [
        "Ġ",
        "^\\"
      ],
      [
        "Ġ",
        "+|"
      ],
      [
        "Ġ",
        "/\\"
      ],
      [
        "Ġ",
        "Li"
      ],
      [
        "Ġ",
        "ef"
      ],
      [
        "Ġ",
        "qx"
      ],
      [
        "Ġ",
        "De"
      ],
      [
        "Ġ",
        "Ln"
      ],
      [
        "Ġ",
        "MR"
      ],
      [
        "ĠÄ",
        "ī"
      ],
      [
        "ĠÄł",
        "H"
      ],
      [
        "ĠÄł",
        "S"
      ],
      [
        "ĠÄł",
        "T"
      ],
      [
        "ĠÄł",
        "e"
      ],
      [
        "ĠÄł",
        "g"
      ],
      [
        "ĠÄł",
        "j"
      ],
      [
        "ĠÄł",
        "l"
      ],
      [
        "ĠÄł",
        "o"
      ],
      [
        "ĠÄł",
        "p"
      ],
      [
        "ĠÄł",
        "q"
      ],
      [
        "ĠÄł",
        "r"
      ],
      [
        "ĠÄł",
        "v"
      ],
      [
        "ĠÄł",
        "w"
      ],
      [
        "ĠÄł",
        "z"
      ],
      [
        "ĠÄł",
        "AA"
      ],
      [
        "ĠÄł",
        "CC"
      ],
      [
        "ĠÄł",
        "Li"
      ],
      [
        "ĠÄł",
        "or"
      ],
      [
        "ĠÄł",
        "qx"
      ],
      [
        "ĠÄł",
        "Bd"
      ],
      [
        "ĠÄł",
        "Lt"
      ],
      [
        "ĠÄł",
        "XCC"
      ],
      [
        "ĠÄł",
        "tr"
      ],
      [
        "Ġ}",
        "("
      ],
      [
        "Ġ}",
        "+"
      ],
      [
        "Ġ}",
        "-"
      ],
      [
        "Ġ}",
        "["
      ],
      [
        "Ġ}",
        "\\"
      ],
      [
        "Ġ}",
        "^"
      ],
      [
        "Ġ}",
        "_"
      ],
      [
        "Ġ}",
        "|"
      ],
      [
        "Ġ}",
        "-\\"
      ],
      [
        "Ġ}",
        "+\\"
      ],
      [
        "Ġ}",
        "(\\"
      ],
      [
        "Ġ}",
        "{\\"
      ],
      [
        "Ġ}",
        "=\\"
      ],
      [
        "Ġ}",
        "|\\"
      ],
      [
        "Ġ}",
        "/("
      ],
      [
        "Ġ}",
        "=-"
      ],
      [
        "Ġ}",
        "^\\"
      ],
      [
        "Ġ}",
        "/{"
      ],
      [
        "Ġ)",
        "("
      ],
      [
        "Ġ)",
        "+"
      ],
      [
        "Ġ)",
        ","
      ],
      [
        "Ġ)",
        "-"
      ],
      [
        "Ġ)",
        "/"
      ],
      [
        "Ġ)",
        "\\"
      ],
      [
        "Ġ)",
        "^"
      ],
      [
        "Ġ)",
        "{"
      ],
      [
        "Ġ)",
        "+\\"
      ],
      [
        "Ġ)",
        "+("
      ],
      [
        "Ġ)",
        "-("
      ],
      [
        "Ġ)",
        "/("
      ],
      [
        "Ġ)",
        "^\\"
      ],
      [
        "Ġ)",
        "/\\"
      ],
      [
        "Ġ1",
        "4"
      ],
      [
        "Ġ1",
        "5"
      ],
      [
        "Ġ1",
        "99"
      ],
      [
        "Ġ1",
        "56"
      ],
      [
        "Ġ1",
        "35"
      ],
      [
        "Ġ1",
        "46"
      ],
      [
        "Ġ1",
        "40"
      ],
      [
        "Ġ1",
        "593"
      ],
      [
        "Ġ2",
        "1"
      ],
      [
        "Ġ2",
        "3"
      ],
      [
        "Ġ2",
        "7"
      ],
      [
        "Ġ2",
        "8"
      ],
      [
        "Ġ2",
        "9"
      ],
      [
        "Ġ2",
        "35"
      ],
      [
        "Ġ2",
        "46"
      ],
      [
        "Ġ2",
        "69"
      ],
      [
        "Ġ2",
        "00"
      ],
      [
        "Ġ2",
        "560"
      ],
      [
        "Ġ2",
        "599"
      ],
      [
        "Ġa",
        "E"
      ],
      [
        "Ġa",
        "F"
      ],
      [
        "Ġa",
        "Y"
      ],
      [
        "Ġa",
        "a"
      ],
      [
        "Ġa",
        "c"
      ],
      [
        "Ġa",
        "p"
      ],
      [
        "Ġa",
        "w"
      ],
      [
        "Ġa",
        "x"
      ],
      [
        "Ġa",
        "z"
      ],
      [
        "Ġa",
        "dx"
      ],
      [
        "Ġa",
        "lp"
      ],
      [
        "Ġi",
        "Y"
      ],
      [
        "Ġi",
        "f"
      ],
      [
        "Ġi",
        "k"
      ],
      [
        "Ġi",
        "t"
      ],
      [
        "Ġi",
        "u"
      ],
      [
        "Ġi",
        "x"
      ],
      [
        "Ġi",
        "z"
      ],
      [
        "Ġi",
        "dx"
      ],
      [
        "Ġi",
        "by"
      ],
      [
        "Ġd",
        "a"
      ],
      [
        "Ġd",
        "b"
      ],
      [
        "Ġd",
        "f"
      ],
      [
        "Ġd",
        "t"
      ],
      [
        "Ġd",
        "z"
      ],
      [
        "Ġd",
        "xy"
      ],
      [
        "Ġd",
        "iv"
      ],
      [
        "Ġd",
        "udv"
      ],
      [
        "Ġ=",
        "("
      ],
      [
        "Ġ=",
        "-"
      ],
      [
        "Ġ=",
        "\\"
      ],
      [
        "Ġ=",
        "|"
      ],
      [
        "Ġ=",
        "-\\"
      ],
      [
        "Ġ=",
        "+\\"
      ],
      [
        "Ġ=",
        "(\\"
      ],
      [
        "Ġ=",
        "{\\"
      ],
      [
        "Ġ=",
        "(-"
      ],
      [
        "Ġ=",
        "-("
      ],
      [
        "Ġ=",
        "|\\"
      ],
      [
        "Ġ=",
        "\\{"
      ],
      [
        "ĠÄłd",
        "B"
      ],
      [
        "ĠÄłd",
        "V"
      ],
      [
        "ĠÄłd",
        "f"
      ],
      [
        "ĠÄłd",
        "k"
      ],
      [
        "ĠÄłd",
        "l"
      ],
      [
        "ĠÄłd",
        "s"
      ],
      [
        "ĠÄłd",
        "t"
      ],
      [
        "ĠÄłd",
        "w"
      ],
      [
        "ĠÄłd",
        "x"
      ],
      [
        "ĠÄłd",
        "y"
      ],
      [
        "ĠÄłd",
        "z"
      ],
      [
        "ĠÄłd",
        "xy"
      ],
      [
        "Ġ7",
        "9"
      ],
      [
        "Ġ7",
        "99"
      ],
      [
        "Ġ7",
        "35"
      ],
      [
        "Ġ7",
        "03"
      ],
      [
        "Ġ7",
        "346"
      ],
      [
        "Ġ)}",
        "("
      ],
      [
        "Ġ)}",
        "+"
      ],
      [
        "Ġ)}",
        "-"
      ],
      [
        "Ġ)}",
        "="
      ],
      [
        "Ġ)}",
        "\\"
      ],
      [
        "Ġ)}",
        "_"
      ],
      [
        "Ġ)}",
        "{"
      ],
      [
        "Ġ)}",
        "|"
      ],
      [
        "Ġ)}",
        "}"
      ],
      [
        "Ġ)}",
        "-\\"
      ],
      [
        "Ġ)}",
        "_{"
      ],
      [
        "Ġ3",
        "0"
      ],
      [
        "Ġ3",
        "1"
      ],
      [
        "Ġ3",
        "2"
      ],
      [
        "Ġ3",
        "3"
      ],
      [
        "Ġ3",
        "4"
      ],
      [
        "Ġ3",
        "5"
      ],
      [
        "Ġ3",
        "6"
      ],
      [
        "Ġ3",
        "840"
      ],
      [
        "Ġ5",
        "2"
      ],
      [
        "Ġ5",
        "3"
      ],
      [
        "Ġ5",
        "5"
      ],
      [
        "Ġ5",
        "9"
      ],
      [
        "Ġ5",
        "593"
      ],
      [
        "Ġ5",
        "71"
      ],
      [
        "Ġ5",
        "75"
      ],
      [
        "Ġl",
        "t"
      ],
      [
        "Ġl",
        "eq"
      ],
      [
        "Ġl",
        "im"
      ],
      [
        "Ġl",
        "am"
      ],
      [
        "Ġl",
        "ef"
      ],
      [
        "Ġl",
        "dot"
      ],
      [
        "Ġl",
        "ep"
      ],
      [
        "Ġ|",
        "\\"
      ],
      [
        "Ġ|",
        "^"
      ],
      [
        "Ġ|",
        "|"
      ],
      [
        "Ġ|",
        "}"
      ],
      [
        "Ġ|",
        "(-"
      ],
      [
        "Ġ|",
        "}}"
      ],
      [
        "Ġ})",
        "+"
      ],
      [
        "Ġ})",
        "/"
      ],
      [
        "Ġ})",
        "\\"
      ],
      [
        "Ġ})",
        "+\\"
      ],
      [
        "Ġ})",
        "=("
      ],
      [
        "Ġ}}",
        "("
      ],
      [
        "Ġ}}",
        "+"
      ],
      [
        "Ġ}}",
        "["
      ],
      [
        "Ġ}}",
        "\\"
      ],
      [
        "Ġ}}",
        "{"
      ],
      [
        "Ġ}}",
        "+\\"
      ],
      [
        "Ġ}}",
        "(\\"
      ],
      [
        "Ġ}}",
        "}{{\\"
      ],
      [
        "Ġ0",
        "10"
      ],
      [
        "Ġ0",
        "73"
      ],
      [
        "Ġ0",
        "04"
      ],
      [
        "Ġ0",
        "49"
      ],
      [
        "Ġ0",
        "893"
      ],
      [
        "Ġ^{",
        "("
      ],
      [
        "Ġ^{",
        "+"
      ],
      [
        "Ġ^{",
        "\\"
      ],
      [
        "Ġ^{",
        "-\\"
      ],
      [
        "Ġ^{",
        "(\\"
      ],
      [
        "Ġ4",
        "5"
      ],
      [
        "Ġ4",
        "18"
      ],
      [
        "Ġ]",
        ")"
      ],
      [
        "Ġ]",
        "="
      ],
      [
        "Ġ]",
        "["
      ],
      [
        "Ġ]",
        "}"
      ],
      [
        "Ġ]",
        "=\\"
      ],
      [
        "Ġ]",
        "=-"
      ],
      [
        "Ġb",
        "i"
      ],
      [
        "Ġb",
        "j"
      ],
      [
        "Ġb",
        "eta"
      ],
      [
        "Ġb",
        "bb"
      ],
      [
        "Ġs",
        "ig"
      ],
      [
        "Ġs",
        "in"
      ],
      [
        "Ġs",
        "mm"
      ],
      [
        "Ġs",
        "qr"
      ],
      [
        "Ġ)=",
        "("
      ],
      [
        "Ġ)=",
        "-"
      ],
      [
        "Ġ)=",
        "["
      ],
      [
        "Ġ)=",
        "\\"
      ],
      [
        "Ġ)=",
        "-\\"
      ],
      [
        "Ġ)=",
        "{\\"
      ],
      [
        "Ġc",
        "a"
      ],
      [
        "Ġc",
        "b"
      ],
      [
        "Ġc",
        "r"
      ],
      [
        "Ġc",
        "x"
      ],
      [
        "Ġc",
        "os"
      ],
      [
        "Ġm",
        "n"
      ],
      [
        "Ġm",
        "v"
      ],
      [
        "Ġm",
        "ax"
      ],
      [
        "Ġm",
        "at"
      ],
      [
        "Ġm",
        "bo"
      ],
      [
        "Ġ{",
        "("
      ],
      [
        "Ġ{",
        "-"
      ],
      [
        "Ġ{",
        "|"
      ],
      [
        "Ġ{",
        "|\\"
      ],
      [
        "Ġ{",
        "+}"
      ],
      [
        "Ġ_{",
        "("
      ],
      [
        "Ġ_{",
        "+"
      ],
      [
        "Ġ_{",
        "["
      ],
      [
        "Ġ_{",
        "\\"
      ],
      [
        "Ġ_{",
        "-\\"
      ],
      [
        "ĠÄła",
        "b"
      ],
      [
        "ĠÄła",
        "c"
      ],
      [
        "ĠÄła",
        "d"
      ],
      [
        "ĠÄła",
        "p"
      ],
      [
        "ĠÄła",
        "y"
      ],
      [
        "Ġ12",
        "5"
      ],
      [
        "Ġ12",
        "6"
      ],
      [
        "Ġ12",
        "8"
      ],
      [
        "Ġ12",
        "46"
      ],
      [
        "Ġ12",
        "34"
      ],
      [
        "ta",
        "rr"
      ],
      [
        "Ġ,",
        "-"
      ],
      [
        "Ġ,",
        "\\"
      ],
      [
        "Ġ,",
        "-\\"
      ],
      [
        "Ġ,",
        "(\\"
      ],
      [
        "Ġ6",
        "3"
      ],
      [
        "Ġ6",
        "5"
      ],
      [
        "Ġ6",
        "6"
      ],
      [
        "Ġ6",
        "7"
      ],
      [
        "Ġ9",
        "5"
      ],
      [
        "Ġ9",
        "8"
      ],
      [
        "Ġ9",
        "73"
      ],
      [
        "Ġ9",
        "45"
      ],
      [
        "ĠN",
        "F"
      ],
      [
        "ĠN",
        "P"
      ],
      [
        "ĠN",
        "y"
      ],
      [
        "Ġg",
        "t"
      ],
      [
        "Ġg",
        "x"
      ],
      [
        "Ġg",
        "eq"
      ],
      [
        "Ġg",
        "am"
      ],
      [
        "Ġn",
        "C"
      ],
      [
        "Ġn",
        "e"
      ],
      [
        "Ġn",
        "z"
      ],
      [
        "Ġn",
        "eq"
      ],
      [
        "Ġp",
        "i"
      ],
      [
        "Ġp",
        "m"
      ],
      [
        "Ġp",
        "hi"
      ],
      [
        "Ġp",
        "rime"
      ],
      [
        "Ġx",
        "A"
      ],
      [
        "Ġx",
        "b"
      ],
      [
        "Ġx",
        "x"
      ],
      [
        "Ġx",
        "xy"
      ],
      [
        "Ġy",
        "a"
      ],
      [
        "Ġy",
        "b"
      ],
      [
        "Ġy",
        "x"
      ],
      [
        "Ġy",
        "y"
      ],
      [
        "ĠÄłc",
        "on"
      ],
      [
        "ĠÄłc",
        "yc"
      ],
      [
        "Ġ}^{",
        "-"
      ],
      [
        "Ġ}^{",
        "\\"
      ],
      [
        "Ġ}^{",
        "+\\"
      ],
      [
        "Ġ}^{",
        "+("
      ],
      [
        "Ġ10",
        "0"
      ],
      [
        "Ġ10",
        "4"
      ],
      [
        "Ġ10",
        "56"
      ],
      [
        "Ġ10",
        "00"
      ],
      [
        "Ġ!",
        ")"
      ],
      [
        "Ġ!",
        "}"
      ],
      [
        "Ġ!",
        "/("
      ],
      [
        "Ġ[",
        "-"
      ],
      [
        "Ġ[",
        "\\"
      ],
      [
        "Ġ[",
        "{"
      ],
      [
        "Ġf",
        "or"
      ],
      [
        "Ġk",
        "n"
      ],
      [
        "Ġk",
        "r"
      ],
      [
        "Ġk",
        "x"
      ],
      [
        "Ġr",
        "w"
      ],
      [
        "Ġt",
        "ot"
      ],
      [
        "Ġt",
        "ime"
      ],
      [
        "Ġt",
        "heta"
      ],
      [
        "ĠÄłb",
        "a"
      ],
      [
        "ĠÄłb",
        "c"
      ],
      [
        "ĠÄłb",
        "x"
      ],
      [
        "ĠÄłi",
        "u"
      ],
      [
        "ĠÄłi",
        "x"
      ],
      [
        "ĠÄłi",
        "nt"
      ],
      [
        "ĠÄłm",
        "n"
      ],
      [
        "ĠÄłm",
        "ax"
      ],
      [
        "ĠÄłm",
        "od"
      ],
      [
        "ĠÄły",
        "b"
      ],
      [
        "ĠÄły",
        "k"
      ],
      [
        "ĠÄły",
        "dx"
      ],
      [
        "Ġ},",
        "-"
      ],
      [
        "Ġ},",
        "\\"
      ],
      [
        "Ġ},",
        "-\\"
      ],
      [
        "Ġ)^{",
        "-"
      ],
      [
        "Ġ)^{",
        "\\"
      ],
      [
        "Ġ)^{",
        "|"
      ],
      [
        "Ġ72",
        "5"
      ],
      [
        "Ġ72",
        "68"
      ],
      [
        "Ġ72",
        "90"
      ],
      [
        "13",
        "7"
      ],
      [
        "14",
        "4"
      ],
      [
        "16",
        "7"
      ],
      [
        "16",
        "05"
      ],
      [
        "Ġ(",
        "["
      ],
      [
        "Ġ(",
        "-\\"
      ],
      [
        "Ġ8",
        "0"
      ],
      [
        "Ġ8",
        "192"
      ],
      [
        "ĠÄłf",
        "g"
      ],
      [
        "ĠÄłf",
        "x"
      ],
      [
        "ĠÄłxy",
        "x"
      ],
      [
        "ĠÄłxy",
        "z"
      ],
      [
        "Ġ}{",
        "("
      ],
      [
        "Ġ}{",
        "{("
      ],
      [
        "Ġ11",
        "2"
      ],
      [
        "Ġ11",
        "73"
      ],
      [
        "Ġ16",
        "7"
      ],
      [
        "Ġ16",
        "14"
      ],
      [
        "Ġ17",
        "6"
      ],
      [
        "Ġ17",
        "82"
      ],
      [
        "Ġ18",
        "9"
      ],
      [
        "Ġ18",
        "58"
      ],
      [
        "Ġin",
        "t"
      ],
      [
        "Ġin",
        "ft"
      ],
      [
        "Ġdy",
        "x"
      ],
      [
        "Ġdy",
        "y"
      ],
      [
        "Ġ})^{",
        "-"
      ],
      [
        "Ġ})^{",
        "\\"
      ],
      [
        "Ġ\\}",
        "="
      ],
      [
        "Ġ\\}",
        "\\{"
      ],
      [
        "||",
        "^"
      ],
      [
        "Ġ.",
        "("
      ],
      [
        "Ġ.",
        "\\"
      ],
      [
        "ĠB",
        "p"
      ],
      [
        "ĠB",
        "CH"
      ],
      [
        "ĠH",
        "t"
      ],
      [
        "ĠH",
        "z"
      ],
      [
        "Ġj",
        "q"
      ],
      [
        "Ġz",
        "dz"
      ],
      [
        "Ġxy",
        "z"
      ],
      [
        "ĠÄłR",
        "e"
      ],
      [
        "ĠÄłR",
        "n"
      ],
      [
        "ĠÄłk",
        "L"
      ],
      [
        "ĠÄłn",
        "m"
      ],
      [
        "ĠÄłu",
        "h"
      ],
      [
        "ĠÄłx",
        "b"
      ],
      [
        "Ġ}=",
        "-\\"
      ],
      [
        "Ġ}_{",
        "+\\"
      ],
      [
        "Ġ)]",
        "-"
      ],
      [
        "Ġ)]",
        "^"
      ],
      [
        "Ġ)|",
        "}"
      ],
      [
        "Ġ)|",
        "=\\"
      ],
      [
        "Ġ13",
        "0"
      ],
      [
        "Ġ19",
        "68"
      ],
      [
        "Ġ22",
        "27"
      ],
      [
        "Ġ24",
        "99"
      ],
      [
        "Ġij",
        "k"
      ],
      [
        "Ġdx",
        "x"
      ],
      [
        "Ġ78",
        "3"
      ],
      [
        "Ġ39",
        "57"
      ],
      [
        "Ġ56",
        "78"
      ],
      [
        "Ġlo",
        "g"
      ],
      [
        "Ġlo",
        "op"
      ],
      [
        "Ġ|^{",
        "-"
      ],
      [
        "Ġ|^{",
        "\\"
      ],
      [
        "Ġ01",
        "1"
      ],
      [
        "Ġ^{-",
        "|"
      ],
      [
        "Ġ40",
        "17"
      ],
      [
        "Ġ48",
        "1"
      ],
      [
        "Ġba",
        "b"
      ],
      [
        "Ġsu",
        "m"
      ],
      [
        "ĠNx",
        "dy"
      ],
      [
        "ĠÄłca",
        "n"
      ],
      [
        "103",
        "7"
      ],
      [
        "Ġfr",
        "ac"
      ],
      [
        "Ġabc",
        "d"
      ],
      [
        "Ġrigh",
        "t"
      ],
      [
        "Ġrigh",
        "tarr"
      ],
      [
        "((",
        "-\\"
      ],
      [
        "al",
        "l"
      ],
      [
        "bd",
        "a"
      ],
      [
        "hr",
        "m"
      ],
      [
        "Ġ99",
        "9"
      ],
      [
        "Ġta",
        "n"
      ],
      [
        "Ġef",
        "f"
      ],
      [
        "ĠDe",
        "lta"
      ],
      [
        "ĠÄłAA",
        "A"
      ],
      [
        "ĠÄłBd",
        "A"
      ],
      [
        "Ġ199",
        "2"
      ],
      [
        "Ġ156",
        "3"
      ],
      [
        "Ġ140",
        "7"
      ],
      [
        "Ġalp",
        "ha"
      ],
      [
        "Ġlam",
        "bda"
      ],
      [
        "Ġlef",
        "t"
      ],
      [
        "Ġldot",
        "s"
      ],
      [
        "Ġlep",
        "t"
      ],
      [
        "Ġ073",
        "71"
      ],
      [
        "Ġsig",
        "ma"
      ],
      [
        "Ġsqr",
        "t"
      ],
      [
        "Ġmat",
        "hrm"
      ],
      [
        "Ġmbo",
        "x"
      ],
      [
        "Ġgam",
        "ma"
      ],
      [
        "Ġ1000",
        "1"
      ],
      [
        "Ġfor",
        "all"
      ],
      [
        "Ġtime",
        "s"
      ],
      [
        "Ġinft",
        "y"
      ],
      [
        "Ġrightarr",
        "ow"
      ]
    ]
  }
}